#include "model.h"

alignas(8) const unsigned char g_model[] =  {
  0x1c, 0x00, 0x00, 0x00, 0x54, 0x46, 0x4c, 0x33, 0x14, 0x00, 0x20, 0x00,
  0x1c, 0x00, 0x18, 0x00, 0x14, 0x00, 0x10, 0x00, 0x0c, 0x00, 0x00, 0x00,
  0x08, 0x00, 0x04, 0x00, 0x14, 0x00, 0x00, 0x00, 0x1c, 0x00, 0x00, 0x00,
  0x98, 0x00, 0x00, 0x00, 0xf0, 0x00, 0x00, 0x00, 0x7c, 0x07, 0x00, 0x00,
  0x8c, 0x07, 0x00, 0x00, 0x14, 0x0f, 0x00, 0x00, 0x03, 0x00, 0x00, 0x00,
  0x01, 0x00, 0x00, 0x00, 0x10, 0x00, 0x00, 0x00, 0x00, 0x00, 0x0a, 0x00,
  0x10, 0x00, 0x0c, 0x00, 0x08, 0x00, 0x04, 0x00, 0x0a, 0x00, 0x00, 0x00,
  0x0c, 0x00, 0x00, 0x00, 0x1c, 0x00, 0x00, 0x00, 0x38, 0x00, 0x00, 0x00,
  0x0f, 0x00, 0x00, 0x00, 0x73, 0x65, 0x72, 0x76, 0x69, 0x6e, 0x67, 0x5f,
  0x64, 0x65, 0x66, 0x61, 0x75, 0x6c, 0x74, 0x00, 0x01, 0x00, 0x00, 0x00,
  0x04, 0x00, 0x00, 0x00, 0x90, 0xff, 0xff, 0xff, 0x0b, 0x00, 0x00, 0x00,
  0x04, 0x00, 0x00, 0x00, 0x07, 0x00, 0x00, 0x00, 0x64, 0x65, 0x6e, 0x73,
  0x65, 0x5f, 0x32, 0x00, 0x01, 0x00, 0x00, 0x00, 0x04, 0x00, 0x00, 0x00,
  0x4e, 0xf9, 0xff, 0xff, 0x04, 0x00, 0x00, 0x00, 0x13, 0x00, 0x00, 0x00,
  0x6e, 0x6f, 0x72, 0x6d, 0x61, 0x6c, 0x69, 0x7a, 0x61, 0x74, 0x69, 0x6f,
  0x6e, 0x5f, 0x69, 0x6e, 0x70, 0x75, 0x74, 0x00, 0x02, 0x00, 0x00, 0x00,
  0x34, 0x00, 0x00, 0x00, 0x04, 0x00, 0x00, 0x00, 0xdc, 0xff, 0xff, 0xff,
  0x0e, 0x00, 0x00, 0x00, 0x04, 0x00, 0x00, 0x00, 0x13, 0x00, 0x00, 0x00,
  0x43, 0x4f, 0x4e, 0x56, 0x45, 0x52, 0x53, 0x49, 0x4f, 0x4e, 0x5f, 0x4d,
  0x45, 0x54, 0x41, 0x44, 0x41, 0x54, 0x41, 0x00, 0x08, 0x00, 0x0c, 0x00,
  0x08, 0x00, 0x04, 0x00, 0x08, 0x00, 0x00, 0x00, 0x0d, 0x00, 0x00, 0x00,
  0x04, 0x00, 0x00, 0x00, 0x13, 0x00, 0x00, 0x00, 0x6d, 0x69, 0x6e, 0x5f,
  0x72, 0x75, 0x6e, 0x74, 0x69, 0x6d, 0x65, 0x5f, 0x76, 0x65, 0x72, 0x73,
  0x69, 0x6f, 0x6e, 0x00, 0x0f, 0x00, 0x00, 0x00, 0x88, 0x06, 0x00, 0x00,
  0x80, 0x06, 0x00, 0x00, 0x30, 0x06, 0x00, 0x00, 0x98, 0x05, 0x00, 0x00,
  0x88, 0x01, 0x00, 0x00, 0xf8, 0x00, 0x00, 0x00, 0xc8, 0x00, 0x00, 0x00,
  0xb4, 0x00, 0x00, 0x00, 0xac, 0x00, 0x00, 0x00, 0xa4, 0x00, 0x00, 0x00,
  0x9c, 0x00, 0x00, 0x00, 0x94, 0x00, 0x00, 0x00, 0x8c, 0x00, 0x00, 0x00,
  0x6c, 0x00, 0x00, 0x00, 0x04, 0x00, 0x00, 0x00, 0x0a, 0xfa, 0xff, 0xff,
  0x04, 0x00, 0x00, 0x00, 0x58, 0x00, 0x00, 0x00, 0x0c, 0x00, 0x00, 0x00,
  0x08, 0x00, 0x0e, 0x00, 0x08, 0x00, 0x04, 0x00, 0x08, 0x00, 0x00, 0x00,
  0x10, 0x00, 0x00, 0x00, 0x28, 0x00, 0x00, 0x00, 0x00, 0x00, 0x06, 0x00,
  0x08, 0x00, 0x04, 0x00, 0x06, 0x00, 0x00, 0x00, 0x04, 0x00, 0x00, 0x00,
  0x01, 0x00, 0x00, 0x00, 0xeb, 0x03, 0x00, 0x00, 0x00, 0x00, 0x0a, 0x00,
  0x10, 0x00, 0x0c, 0x00, 0x08, 0x00, 0x04, 0x00, 0x0a, 0x00, 0x00, 0x00,
  0x02, 0x00, 0x00, 0x00, 0x02, 0x00, 0x00, 0x00, 0x04, 0x00, 0x00, 0x00,
  0x05, 0x00, 0x00, 0x00, 0x32, 0x2e, 0x39, 0x2e, 0x32, 0x00, 0x00, 0x00,
  0x6e, 0xfa, 0xff, 0xff, 0x04, 0x00, 0x00, 0x00, 0x10, 0x00, 0x00, 0x00,
  0x31, 0x2e, 0x31, 0x34, 0x2e, 0x30, 0x00, 0x00, 0x00, 0x00, 0x00, 0x00,
  0x00, 0x00, 0x00, 0x00, 0x94, 0xf9, 0xff, 0xff, 0x98, 0xf9, 0xff, 0xff,
  0x9c, 0xf9, 0xff, 0xff, 0xa0, 0xf9, 0xff, 0xff, 0xa4, 0xf9, 0xff, 0xff,
  0x9e, 0xfa, 0xff, 0xff, 0x04, 0x00, 0x00, 0x00, 0x04, 0x00, 0x00, 0x00,
  0x70, 0x06, 0x00, 0x00, 0xae, 0xfa, 0xff, 0xff, 0x04, 0x00, 0x00, 0x00,
  0x20, 0x00, 0x00, 0x00, 0xef, 0x18, 0x19, 0x08, 0x95, 0x19, 0x46, 0x0d,
  0x7f, 0x32, 0xa5, 0x7d, 0x40, 0xc9, 0x0f, 0x15, 0x15, 0x1b, 0x1d, 0x03,
  0x17, 0x19, 0x6f, 0x40, 0x18, 0x18, 0x1f, 0x18, 0x02, 0xfa, 0x17, 0x30,
  0xda, 0xfa, 0xff, 0xff, 0x04, 0x00, 0x00, 0x00, 0x80, 0x00, 0x00, 0x00,
  0xc2, 0xff, 0xff, 0xff, 0xa6, 0xff, 0xff, 0xff, 0xa6, 0xff, 0xff, 0xff,
  0x78, 0xfd, 0xff, 0xff, 0x80, 0xfe, 0xff, 0xff, 0xa6, 0xff, 0xff, 0xff,
  0xc4, 0xfd, 0xff, 0xff, 0xe6, 0xfc, 0xff, 0xff, 0x39, 0xfe, 0xff, 0xff,
  0x8b, 0xf8, 0xff, 0xff, 0xd8, 0xfe, 0xff, 0xff, 0x3e, 0xfe, 0xff, 0xff,
  0x75, 0xed, 0xff, 0xff, 0x44, 0x05, 0x00, 0x00, 0xed, 0xfd, 0xff, 0xff,
  0xa6, 0xff, 0xff, 0xff, 0xa6, 0xff, 0xff, 0xff, 0x70, 0xfb, 0xff, 0xff,
  0x66, 0xfa, 0xff, 0xff, 0x00, 0x00, 0x00, 0x00, 0xa6, 0xff, 0xff, 0xff,
  0xa6, 0xff, 0xff, 0xff, 0x74, 0xfe, 0xff, 0xff, 0x1f, 0xff, 0xff, 0xff,
  0xa6, 0xff, 0xff, 0xff, 0xa6, 0xff, 0xff, 0xff, 0x0c, 0xfa, 0xff, 0xff,
  0xa6, 0xff, 0xff, 0xff, 0x00, 0x00, 0x00, 0x00, 0x4b, 0xfc, 0xff, 0xff,
  0xa6, 0xff, 0xff, 0xff, 0x5a, 0xf9, 0xff, 0xff, 0x66, 0xfb, 0xff, 0xff,
  0x04, 0x00, 0x00, 0x00, 0x00, 0x04, 0x00, 0x00, 0xf5, 0xfc, 0xff, 0xf6,
  0x01, 0xff, 0xf3, 0xf5, 0x02, 0xf6, 0x00, 0x01, 0xfd, 0xfe, 0x01, 0xf4,
  0xff, 0xff, 0xfd, 0xff, 0xf3, 0xf4, 0xfe, 0xf2, 0xfd, 0xff, 0xfd, 0xf2,
  0xf0, 0x00, 0x00, 0x01, 0xef, 0xed, 0xed, 0xef, 0xfe, 0x00, 0xee, 0xed,
  0x01, 0xec, 0xee, 0xed, 0xff, 0x02, 0x02, 0xee, 0xf1, 0xef, 0xef, 0xef,
  0xee, 0xec, 0xfd, 0xef, 0x00, 0xff, 0xed, 0xec, 0xef, 0x00, 0x04, 0xf0,
  0xed, 0xff, 0xee, 0xec, 0xfd, 0x03, 0xf0, 0xec, 0xff, 0xef, 0xee, 0xef,
  0xfd, 0x02, 0xfd, 0xef, 0xed, 0xef, 0xec, 0xed, 0xeb, 0xff, 0xff, 0xed,
  0xff, 0x02, 0xef, 0xf0, 0xef, 0xfe, 0xfd, 0xff, 0xf4, 0x16, 0x14, 0xfb,
  0x00, 0x00, 0x04, 0xf8, 0x00, 0xe6, 0x12, 0x13, 0x03, 0xff, 0x01, 0xf3,
  0x0f, 0x12, 0x13, 0x13, 0xf9, 0xf9, 0x00, 0xf9, 0x01, 0xfe, 0x12, 0xf9,
  0x01, 0x00, 0x00, 0x12, 0xb2, 0xfe, 0x00, 0xfe, 0x03, 0x01, 0xb1, 0xb4,
  0xfe, 0xb4, 0x01, 0xff, 0x02, 0x01, 0x04, 0xb2, 0x00, 0xff, 0x00, 0x00,
  0xfe, 0xb2, 0x00, 0x01, 0x00, 0x02, 0xff, 0xff, 0xb1, 0xff, 0x00, 0x02,
  0xf0, 0xef, 0xee, 0xef, 0xfe, 0x00, 0xef, 0xec, 0x01, 0xee, 0xed, 0xf1,
  0x01, 0x01, 0xff, 0xef, 0xed, 0xef, 0xef, 0xef, 0xee, 0xef, 0x02, 0xf0,
  0x01, 0x01, 0xee, 0xed, 0xee, 0xff, 0xfe, 0xee, 0xde, 0x02, 0xfe, 0xdf,
  0xfe, 0x01, 0xdf, 0x81, 0xff, 0xb1, 0xff, 0x00, 0x00, 0x00, 0xfe, 0x00,
  0x02, 0xfd, 0xfe, 0x00, 0xe0, 0xdc, 0x01, 0xe0, 0xfe, 0x03, 0x00, 0xde,
  0x8d, 0x01, 0x00, 0x00, 0xfa, 0x13, 0x11, 0xfe, 0x01, 0x00, 0x04, 0xf9,
  0x01, 0xd1, 0x13, 0x11, 0x00, 0x00, 0xff, 0xea, 0x14, 0x12, 0x13, 0x12,
  0xff, 0xf8, 0x01, 0xfb, 0xfe, 0xfe, 0x10, 0xfc, 0x02, 0x00, 0xff, 0x13,
  0x00, 0x01, 0x01, 0x02, 0xff, 0xff, 0xa3, 0xa5, 0x00, 0xa5, 0x03, 0xff,
  0x01, 0x02, 0xff, 0xff, 0x00, 0xfd, 0xfe, 0x01, 0x01, 0x01, 0x00, 0xff,
  0x04, 0xff, 0x00, 0x01, 0xa2, 0xfe, 0x00, 0x00, 0x20, 0x13, 0x13, 0x17,
  0xfe, 0x03, 0x08, 0x07, 0xff, 0xd1, 0x13, 0x12, 0xff, 0xff, 0x03, 0xf2,
  0x00, 0x12, 0x11, 0x13, 0x17, 0x01, 0xff, 0x14, 0x03, 0x03, 0x11, 0x1a,
  0x00, 0x00, 0xfe, 0x10, 0xb4, 0x01, 0xfe, 0xb7, 0x01, 0x00, 0xbc, 0xb8,
  0x02, 0xb4, 0xfe, 0x00, 0x01, 0x02, 0x02, 0xb7, 0x01, 0x01, 0x01, 0x00,
  0xb6, 0xb4, 0x02, 0xb4, 0x01, 0xff, 0xfd, 0xb9, 0xc0, 0x01, 0x00, 0x03,
  0xa3, 0xfd, 0x00, 0x01, 0xff, 0xfe, 0xa4, 0xa9, 0xfd, 0xa3, 0x00, 0x00,
  0x01, 0x00, 0x00, 0xa7, 0xfe, 0x01, 0x02, 0xfe, 0x00, 0xa8, 0x03, 0x00,
  0xfe, 0x01, 0x01, 0x01, 0xa4, 0x00, 0x01, 0x02, 0xe6, 0x13, 0x13, 0xf6,
  0x00, 0xfe, 0xfe, 0xc7, 0x01, 0xf3, 0x11, 0x16, 0xfe, 0xff, 0x01, 0xff,
  0x13, 0x10, 0x11, 0x14, 0xf3, 0xf9, 0xfd, 0xf5, 0x00, 0x01, 0x10, 0xf2,
  0x1c, 0xff, 0x00, 0x14, 0xf1, 0x11, 0x11, 0xfd, 0x01, 0x01, 0xf8, 0xf3,
  0x00, 0x84, 0x12, 0x13, 0x03, 0x00, 0x00, 0xf2, 0x00, 0x13, 0x13, 0x12,
  0xf4, 0xf7, 0x00, 0xfa, 0x00, 0x01, 0x12, 0xf1, 0xf1, 0xfe, 0xfe, 0x11,
  0xff, 0xf0, 0xee, 0xea, 0x00, 0xff, 0xec, 0xf1, 0xff, 0xa7, 0xeb, 0xed,
  0x00, 0x01, 0x01, 0x00, 0x01, 0xef, 0xed, 0xf1, 0xef, 0xf2, 0x00, 0xee,
  0xff, 0xfe, 0xea, 0xf0, 0x9d, 0x00, 0xfe, 0xeb, 0xf0, 0xf0, 0xf2, 0xed,
  0x02, 0x00, 0xf0, 0xeb, 0x00, 0xec, 0xed, 0xed, 0xff, 0xff, 0xff, 0xef,
  0xef, 0xee, 0xed, 0xf0, 0xed, 0xed, 0xff, 0xee, 0xff, 0x02, 0xef, 0xee,
  0xed, 0x01, 0x00, 0xea, 0xee, 0x03, 0xeb, 0xee, 0x02, 0x00, 0xeb, 0xeb,
  0x00, 0xef, 0xec, 0xef, 0xfe, 0xfe, 0xff, 0xef, 0xef, 0xed, 0xf0, 0xef,
  0xf0, 0x00, 0x02, 0x01, 0x00, 0xff, 0xf0, 0xf1, 0xeb, 0x00, 0xfd, 0xfe,
  0xeb, 0x10, 0x12, 0xfb, 0xff, 0x01, 0xf3, 0xf5, 0x01, 0x0f, 0x13, 0x11,
  0x00, 0x01, 0xff, 0xf6, 0x0e, 0x14, 0x14, 0x12, 0xf9, 0xfb, 0xff, 0xf3,
  0x00, 0x00, 0x11, 0xf2, 0x25, 0xff, 0x03, 0x10, 0xf8, 0x11, 0x12, 0xfa,
  0xfe, 0xfe, 0x1b, 0xfb, 0xff, 0xd4, 0x13, 0x14, 0x02, 0xff, 0x02, 0xec,
  0x15, 0x14, 0x10, 0x12, 0xf8, 0x07, 0x01, 0xf8, 0xfe, 0x00, 0x12, 0xf6,
  0xfb, 0xfe, 0x03, 0x0f, 0xff, 0xfe, 0xff, 0x00, 0xfe, 0xff, 0xfe, 0x00,
  0x01, 0xfe, 0x00, 0x01, 0x00, 0xfe, 0x03, 0x01, 0x02, 0xff, 0x02, 0xff,
  0xfe, 0xff, 0x01, 0x00, 0x00, 0x00, 0x01, 0x02, 0xff, 0xff, 0xff, 0xfe,
  0xee, 0xf0, 0xed, 0xed, 0xff, 0x02, 0xed, 0xed, 0x00, 0xec, 0xef, 0xf1,
  0x01, 0x00, 0x02, 0xf0, 0xed, 0xef, 0xed, 0xee, 0xec, 0xee, 0xfe, 0xef,
  0xff, 0x02, 0xee, 0xf1, 0xf1, 0x00, 0x01, 0xef, 0xee, 0xf0, 0xef, 0xec,
  0xff, 0x02, 0xf0, 0xef, 0x02, 0xf0, 0xee, 0xef, 0x01, 0x00, 0x00, 0xef,
  0xed, 0xed, 0xee, 0xec, 0xee, 0xf0, 0xfe, 0xf1, 0x03, 0x00, 0xed, 0xef,
  0xed, 0xff, 0xff, 0xee, 0x00, 0x01, 0xfe, 0x01, 0x02, 0xff, 0xaf, 0xb1,
  0xff, 0xb2, 0xff, 0xff, 0x00, 0xfe, 0x00, 0xaf, 0x01, 0xff, 0x00, 0x01,
  0xfe, 0xb2, 0x01, 0x01, 0xff, 0x02, 0xfe, 0xfe, 0xaf, 0x00, 0x00, 0x01,
  0xfd, 0x01, 0x00, 0xd3, 0xfe, 0x01, 0xd2, 0x00, 0x03, 0x00, 0xfe, 0xff,
  0x02, 0xff, 0x02, 0x00, 0xff, 0xff, 0xff, 0xfd, 0xd1, 0x02, 0x00, 0xd1,
  0x01, 0xff, 0x00, 0x00, 0xd3, 0x01, 0x02, 0xff, 0xec, 0xed, 0xec, 0xee,
  0xff, 0x00, 0xf0, 0xf0, 0xfd, 0xec, 0xed, 0xf0, 0x00, 0xfd, 0xfe, 0xed,
  0xed, 0xef, 0xf2, 0xec, 0xed, 0xef, 0x00, 0xec, 0xfe, 0xfd, 0xec, 0xeb,
  0xed, 0x01, 0xff, 0xed, 0xfd, 0xef, 0xed, 0xed, 0x00, 0xfe, 0xec, 0xff,
  0xff, 0xff, 0xee, 0xf0, 0x00, 0x00, 0x00, 0x01, 0xff, 0xed, 0xed, 0xed,
  0xee, 0xf0, 0x00, 0xef, 0x00, 0x00, 0xed, 0xee, 0xef, 0xfe, 0x00, 0xf0,
  0x00, 0x01, 0x0f, 0x02, 0x00, 0xff, 0x1a, 0xe4, 0x01, 0xcd, 0x12, 0x11,
  0x02, 0x02, 0xff, 0xfd, 0x11, 0x14, 0x15, 0x12, 0x04, 0x01, 0x01, 0x01,
  0xfe, 0x03, 0x13, 0x05, 0xf1, 0xfe, 0xff, 0x01, 0xef, 0xfd, 0xf0, 0xee,
  0x00, 0xff, 0xec, 0xf1, 0x00, 0xed, 0xee, 0xee, 0x00, 0xff, 0xfe, 0xed,
  0xee, 0xf0, 0xed, 0xee, 0xee, 0x01, 0x00, 0xed, 0x00, 0x00, 0xf0, 0xf1,
  0xee, 0xff, 0xff, 0x02, 0x01, 0xff, 0xff, 0xff, 0xff, 0xff, 0x01, 0xfe,
  0x01, 0x00, 0x01, 0xfe, 0xfd, 0x01, 0x03, 0x02, 0x00, 0x00, 0x00, 0x00,
  0x01, 0x02, 0x01, 0xff, 0xfe, 0x02, 0x00, 0xfe, 0xfd, 0x01, 0xff, 0x00,
  0xf9, 0x13, 0x11, 0xfb, 0x01, 0x00, 0x00, 0xfa, 0xff, 0xab, 0x0f, 0x13,
  0x00, 0x00, 0x00, 0xf4, 0x12, 0x12, 0x11, 0x12, 0xfa, 0xf9, 0xff, 0xf9,
  0x00, 0x00, 0x12, 0xfa, 0xcc, 0x00, 0x01, 0x14, 0xec, 0xed, 0xee, 0xf0,
  0x02, 0xfe, 0xec, 0xf1, 0xfe, 0xec, 0xef, 0xf0, 0xfe, 0x00, 0x00, 0xef,
  0xec, 0xef, 0xef, 0xee, 0xef, 0xee, 0x01, 0xec, 0x00, 0xfe, 0xee, 0xed,
  0xee, 0x02, 0xff, 0xef, 0xef, 0x13, 0x11, 0xf8, 0x02, 0xff, 0x05, 0xe2,
  0x00, 0xb8, 0x12, 0x13, 0x00, 0x01, 0xff, 0xfa, 0x11, 0x0f, 0x11, 0x11,
  0xf6, 0xf5, 0x00, 0xf2, 0xfc, 0x01, 0x12, 0xf5, 0x01, 0x00, 0x01, 0x12,
  0x72, 0xff, 0xff, 0xff, 0x04, 0x00, 0x00, 0x00, 0x80, 0x00, 0x00, 0x00,
  0xf5, 0xf6, 0xff, 0xff, 0x85, 0xff, 0xff, 0xff, 0x85, 0xff, 0xff, 0xff,
  0x22, 0xf9, 0xff, 0xff, 0x00, 0x00, 0x00, 0x00, 0x00, 0x00, 0x00, 0x00,
  0xcf, 0xe7, 0xff, 0xff, 0xc1, 0xfa, 0xff, 0xff, 0x00, 0x00, 0x00, 0x00,
  0xa5, 0x1e, 0x00, 0x00, 0x85, 0xff, 0xff, 0xff, 0x85, 0xff, 0xff, 0xff,
  0x00, 0x00, 0x00, 0x00, 0x00, 0x00, 0x00, 0x00, 0x00, 0x00, 0x00, 0x00,
  0xcc, 0xfd, 0xff, 0xff, 0x85, 0xff, 0xff, 0xff, 0x85, 0xff, 0xff, 0xff,
  0x85, 0xff, 0xff, 0xff, 0x85, 0xff, 0xff, 0xff, 0xc3, 0xf8, 0xff, 0xff,
  0x87, 0xfc, 0xff, 0xff, 0x00, 0x00, 0x00, 0x00, 0x46, 0xf9, 0xff, 0xff,
  0x00, 0x00, 0x00, 0x00, 0x00, 0x00, 0x00, 0x00, 0x85, 0xff, 0xff, 0xff,
  0xd5, 0xf8, 0xff, 0xff, 0xd6, 0xe5, 0xff, 0xff, 0x00, 0x00, 0x00, 0x00,
  0x00, 0x00, 0x00, 0x00, 0x85, 0xff, 0xff, 0xff, 0x00, 0x00, 0x06, 0x00,
  0x08, 0x00, 0x04, 0x00, 0x06, 0x00, 0x00, 0x00, 0x04, 0x00, 0x00, 0x00,
  0x40, 0x00, 0x00, 0x00, 0x08, 0xe0, 0xd1, 0xd8, 0xd5, 0xd6, 0x0a, 0xeb,
  0xfc, 0xfb, 0x00, 0xfb, 0x60, 0xe6, 0xfe, 0xa7, 0xfd, 0xfd, 0xf4, 0xe2,
  0xd5, 0xd6, 0xd6, 0xd7, 0xff, 0xfa, 0xfa, 0x00, 0xfd, 0x00, 0xfa, 0xc1,
  0xd6, 0xd1, 0xd5, 0xd6, 0xd9, 0xd6, 0xd5, 0xda, 0x08, 0xe8, 0x07, 0xda,
  0xfd, 0xff, 0x01, 0xe2, 0xff, 0xfe, 0xfd, 0xff, 0xd5, 0xd6, 0x07, 0xe5,
  0x7f, 0x0f, 0xfe, 0x00, 0xfc, 0xfe, 0xce, 0xd8, 0x5c, 0xff, 0xff, 0xff,
  0x60, 0xff, 0xff, 0xff, 0x0f, 0x00, 0x00, 0x00, 0x4d, 0x4c, 0x49, 0x52,
  0x20, 0x43, 0x6f, 0x6e, 0x76, 0x65, 0x72, 0x74, 0x65, 0x64, 0x2e, 0x00,
  0x01, 0x00, 0x00, 0x00, 0x14, 0x00, 0x00, 0x00, 0x00, 0x00, 0x0e, 0x00,
  0x18, 0x00, 0x14, 0x00, 0x10, 0x00, 0x0c, 0x00, 0x08, 0x00, 0x04, 0x00,
  0x0e, 0x00, 0x00, 0x00, 0x14, 0x00, 0x00, 0x00, 0x1c, 0x00, 0x00, 0x00,
  0x34, 0x01, 0x00, 0x00, 0x38, 0x01, 0x00, 0x00, 0x3c, 0x01, 0x00, 0x00,
  0x04, 0x00, 0x00, 0x00, 0x6d, 0x61, 0x69, 0x6e, 0x00, 0x00, 0x00, 0x00,
  0x05, 0x00, 0x00, 0x00, 0xfc, 0x00, 0x00, 0x00, 0xac, 0x00, 0x00, 0x00,
  0x60, 0x00, 0x00, 0x00, 0x24, 0x00, 0x00, 0x00, 0x04, 0x00, 0x00, 0x00,
  0x22, 0xff, 0xff, 0xff, 0x08, 0x00, 0x00, 0x00, 0x0c, 0x00, 0x00, 0x00,
  0x01, 0x00, 0x00, 0x00, 0x0b, 0x00, 0x00, 0x00, 0x01, 0x00, 0x00, 0x00,
  0x0a, 0x00, 0x00, 0x00, 0x8e, 0xff, 0xff, 0xff, 0x18, 0x00, 0x00, 0x00,
  0x00, 0x00, 0x00, 0x08, 0x14, 0x00, 0x00, 0x00, 0x18, 0x00, 0x00, 0x00,
  0x01, 0x00, 0x00, 0x00, 0x04, 0x00, 0x04, 0x00, 0x04, 0x00, 0x00, 0x00,
  0x01, 0x00, 0x00, 0x00, 0x0a, 0x00, 0x00, 0x00, 0x03, 0x00, 0x00, 0x00,
  0x09, 0x00, 0x00, 0x00, 0x05, 0x00, 0x00, 0x00, 0x06, 0x00, 0x00, 0x00,
  0xc6, 0xff, 0xff, 0xff, 0x14, 0x00, 0x00, 0x00, 0x00, 0x00, 0x00, 0x08,
  0x14, 0x00, 0x00, 0x00, 0x18, 0x00, 0x00, 0x00, 0x01, 0x00, 0x00, 0x00,
  0xb6, 0xff, 0xff, 0xff, 0x00, 0x00, 0x00, 0x01, 0x01, 0x00, 0x00, 0x00,
  0x09, 0x00, 0x00, 0x00, 0x03, 0x00, 0x00, 0x00, 0x08, 0x00, 0x00, 0x00,
  0x03, 0x00, 0x00, 0x00, 0x04, 0x00, 0x00, 0x00, 0x00, 0x00, 0x0e, 0x00,
  0x1a, 0x00, 0x14, 0x00, 0x10, 0x00, 0x0c, 0x00, 0x0b, 0x00, 0x04, 0x00,
  0x0e, 0x00, 0x00, 0x00, 0x1c, 0x00, 0x00, 0x00, 0x00, 0x00, 0x00, 0x08,
  0x1c, 0x00, 0x00, 0x00, 0x20, 0x00, 0x00, 0x00, 0x01, 0x00, 0x00, 0x00,
  0x00, 0x00, 0x06, 0x00, 0x08, 0x00, 0x07, 0x00, 0x06, 0x00, 0x00, 0x00,
  0x00, 0x00, 0x00, 0x01, 0x01, 0x00, 0x00, 0x00, 0x08, 0x00, 0x00, 0x00,
  0x03, 0x00, 0x00, 0x00, 0x07, 0x00, 0x00, 0x00, 0x01, 0x00, 0x00, 0x00,
  0x02, 0x00, 0x00, 0x00, 0x00, 0x00, 0x0a, 0x00, 0x0c, 0x00, 0x00, 0x00,
  0x08, 0x00, 0x04, 0x00, 0x0a, 0x00, 0x00, 0x00, 0x08, 0x00, 0x00, 0x00,
  0x0c, 0x00, 0x00, 0x00, 0x01, 0x00, 0x00, 0x00, 0x07, 0x00, 0x00, 0x00,
  0x01, 0x00, 0x00, 0x00, 0x00, 0x00, 0x00, 0x00, 0x01, 0x00, 0x00, 0x00,
  0x0b, 0x00, 0x00, 0x00, 0x01, 0x00, 0x00, 0x00, 0x00, 0x00, 0x00, 0x00,
  0x0c, 0x00, 0x00, 0x00, 0x94, 0x05, 0x00, 0x00, 0x1c, 0x05, 0x00, 0x00,
  0x78, 0x04, 0x00, 0x00, 0x0c, 0x04, 0x00, 0x00, 0x98, 0x03, 0x00, 0x00,
  0x2c, 0x03, 0x00, 0x00, 0xb8, 0x02, 0x00, 0x00, 0x4c, 0x02, 0x00, 0x00,
  0xa8, 0x01, 0x00, 0x00, 0xfc, 0x00, 0x00, 0x00, 0x80, 0x00, 0x00, 0x00,
  0x04, 0x00, 0x00, 0x00, 0xb0, 0xfa, 0xff, 0xff, 0x18, 0x00, 0x00, 0x00,
  0x20, 0x00, 0x00, 0x00, 0x40, 0x00, 0x00, 0x00, 0x0c, 0x00, 0x00, 0x00,
  0x00, 0x00, 0x00, 0x03, 0x54, 0x00, 0x00, 0x00, 0x02, 0x00, 0x00, 0x00,
  0xff, 0xff, 0xff, 0xff, 0x01, 0x00, 0x00, 0x00, 0x9c, 0xfa, 0xff, 0xff,
  0x08, 0x00, 0x00, 0x00, 0x14, 0x00, 0x00, 0x00, 0x01, 0x00, 0x00, 0x00,
  0x00, 0x00, 0x00, 0x00, 0x00, 0x00, 0x00, 0x00, 0x00, 0x00, 0x00, 0x00,
  0x01, 0x00, 0x00, 0x00, 0xac, 0x7f, 0x86, 0x3e, 0x19, 0x00, 0x00, 0x00,
  0x53, 0x74, 0x61, 0x74, 0x65, 0x66, 0x75, 0x6c, 0x50, 0x61, 0x72, 0x74,
  0x69, 0x74, 0x69, 0x6f, 0x6e, 0x65, 0x64, 0x43, 0x61, 0x6c, 0x6c, 0x3a,
  0x30, 0x00, 0x00, 0x00, 0x02, 0x00, 0x00, 0x00, 0x01, 0x00, 0x00, 0x00,
  0x01, 0x00, 0x00, 0x00, 0x28, 0xfb, 0xff, 0xff, 0x18, 0x00, 0x00, 0x00,
  0x20, 0x00, 0x00, 0x00, 0x40, 0x00, 0x00, 0x00, 0x0b, 0x00, 0x00, 0x00,
  0x00, 0x00, 0x00, 0x09, 0x54, 0x00, 0x00, 0x00, 0x02, 0x00, 0x00, 0x00,
  0xff, 0xff, 0xff, 0xff, 0x01, 0x00, 0x00, 0x00, 0x14, 0xfb, 0xff, 0xff,
  0x08, 0x00, 0x00, 0x00, 0x14, 0x00, 0x00, 0x00, 0x01, 0x00, 0x00, 0x00,
  0x80, 0xff, 0xff, 0xff, 0xff, 0xff, 0xff, 0xff, 0x00, 0x00, 0x00, 0x00,
  0x01, 0x00, 0x00, 0x00, 0xac, 0x7f, 0x86, 0x3e, 0x1a, 0x00, 0x00, 0x00,
  0x53, 0x74, 0x61, 0x74, 0x65, 0x66, 0x75, 0x6c, 0x50, 0x61, 0x72, 0x74,
  0x69, 0x74, 0x69, 0x6f, 0x6e, 0x65, 0x64, 0x43, 0x61, 0x6c, 0x6c, 0x3a,
  0x30, 0x31, 0x00, 0x00, 0x02, 0x00, 0x00, 0x00, 0x01, 0x00, 0x00, 0x00,
  0x01, 0x00, 0x00, 0x00, 0xa0, 0xfb, 0xff, 0xff, 0x18, 0x00, 0x00, 0x00,
  0x20, 0x00, 0x00, 0x00, 0x3c, 0x00, 0x00, 0x00, 0x0a, 0x00, 0x00, 0x00,
  0x00, 0x00, 0x00, 0x09, 0x84, 0x00, 0x00, 0x00, 0x02, 0x00, 0x00, 0x00,
  0xff, 0xff, 0xff, 0xff, 0x20, 0x00, 0x00, 0x00, 0x8c, 0xfb, 0xff, 0xff,
  0x08, 0x00, 0x00, 0x00, 0x10, 0x00, 0x00, 0x00, 0x01, 0x00, 0x00, 0x00,
  0x80, 0xff, 0xff, 0xff, 0xff, 0xff, 0xff, 0xff, 0x01, 0x00, 0x00, 0x00,
  0x49, 0xb4, 0x5a, 0x3e, 0x4c, 0x00, 0x00, 0x00, 0x73, 0x65, 0x71, 0x75,
  0x65, 0x6e, 0x74, 0x69, 0x61, 0x6c, 0x2f, 0x64, 0x65, 0x6e, 0x73, 0x65,
  0x5f, 0x31, 0x2f, 0x4d, 0x61, 0x74, 0x4d, 0x75, 0x6c, 0x3b, 0x73, 0x65,
  0x71, 0x75, 0x65, 0x6e, 0x74, 0x69, 0x61, 0x6c, 0x2f, 0x64, 0x65, 0x6e,
  0x73, 0x65, 0x5f, 0x31, 0x2f, 0x52, 0x65, 0x6c, 0x75, 0x3b, 0x73, 0x65,
  0x71, 0x75, 0x65, 0x6e, 0x74, 0x69, 0x61, 0x6c, 0x2f, 0x64, 0x65, 0x6e,
  0x73, 0x65, 0x5f, 0x31, 0x2f, 0x42, 0x69, 0x61, 0x73, 0x41, 0x64, 0x64,
  0x00, 0x00, 0x00, 0x00, 0x02, 0x00, 0x00, 0x00, 0x01, 0x00, 0x00, 0x00,
  0x20, 0x00, 0x00, 0x00, 0x48, 0xfc, 0xff, 0xff, 0x18, 0x00, 0x00, 0x00,
  0x20, 0x00, 0x00, 0x00, 0x3c, 0x00, 0x00, 0x00, 0x09, 0x00, 0x00, 0x00,
  0x00, 0x00, 0x00, 0x09, 0x7c, 0x00, 0x00, 0x00, 0x02, 0x00, 0x00, 0x00,
  0xff, 0xff, 0xff, 0xff, 0x20, 0x00, 0x00, 0x00, 0x34, 0xfc, 0xff, 0xff,
  0x08, 0x00, 0x00, 0x00, 0x10, 0x00, 0x00, 0x00, 0x01, 0x00, 0x00, 0x00,
  0x80, 0xff, 0xff, 0xff, 0xff, 0xff, 0xff, 0xff, 0x01, 0x00, 0x00, 0x00,
  0x26, 0x8c, 0x4d, 0x3e, 0x47, 0x00, 0x00, 0x00, 0x73, 0x65, 0x71, 0x75,
  0x65, 0x6e, 0x74, 0x69, 0x61, 0x6c, 0x2f, 0x64, 0x65, 0x6e, 0x73, 0x65,
  0x2f, 0x4d, 0x61, 0x74, 0x4d, 0x75, 0x6c, 0x3b, 0x73, 0x65, 0x71, 0x75,
  0x65, 0x6e, 0x74, 0x69, 0x61, 0x6c, 0x2f, 0x64, 0x65, 0x6e, 0x73, 0x65,
  0x2f, 0x52, 0x65, 0x6c, 0x75, 0x3b, 0x73, 0x65, 0x71, 0x75, 0x65, 0x6e,
  0x74, 0x69, 0x61, 0x6c, 0x2f, 0x64, 0x65, 0x6e, 0x73, 0x65, 0x2f, 0x42,
  0x69, 0x61, 0x73, 0x41, 0x64, 0x64, 0x31, 0x00, 0x02, 0x00, 0x00, 0x00,
  0x01, 0x00, 0x00, 0x00, 0x20, 0x00, 0x00, 0x00, 0xe8, 0xfc, 0xff, 0xff,
  0x18, 0x00, 0x00, 0x00, 0x20, 0x00, 0x00, 0x00, 0x3c, 0x00, 0x00, 0x00,
  0x08, 0x00, 0x00, 0x00, 0x00, 0x00, 0x00, 0x09, 0x44, 0x00, 0x00, 0x00,
  0x02, 0x00, 0x00, 0x00, 0xff, 0xff, 0xff, 0xff, 0x02, 0x00, 0x00, 0x00,
  0xd4, 0xfc, 0xff, 0xff, 0x08, 0x00, 0x00, 0x00, 0x10, 0x00, 0x00, 0x00,
  0x01, 0x00, 0x00, 0x00, 0x80, 0xff, 0xff, 0xff, 0xff, 0xff, 0xff, 0xff,
  0x01, 0x00, 0x00, 0x00, 0xb5, 0xb4, 0xb4, 0x3e, 0x0c, 0x00, 0x00, 0x00,
  0x74, 0x66, 0x6c, 0x2e, 0x71, 0x75, 0x61, 0x6e, 0x74, 0x69, 0x7a, 0x65,
  0x00, 0x00, 0x00, 0x00, 0x02, 0x00, 0x00, 0x00, 0x01, 0x00, 0x00, 0x00,
  0x02, 0x00, 0x00, 0x00, 0xbe, 0xfd, 0xff, 0xff, 0x14, 0x00, 0x00, 0x00,
  0x30, 0x00, 0x00, 0x00, 0x07, 0x00, 0x00, 0x00, 0x00, 0x00, 0x00, 0x02,
  0x54, 0x00, 0x00, 0x00, 0x2c, 0xfd, 0xff, 0xff, 0x08, 0x00, 0x00, 0x00,
  0x10, 0x00, 0x00, 0x00, 0x01, 0x00, 0x00, 0x00, 0x00, 0x00, 0x00, 0x00,
  0x00, 0x00, 0x00, 0x00, 0x01, 0x00, 0x00, 0x00, 0xf0, 0xe8, 0xa5, 0x3b,
  0x29, 0x00, 0x00, 0x00, 0x73, 0x65, 0x71, 0x75, 0x65, 0x6e, 0x74, 0x69,
  0x61, 0x6c, 0x2f, 0x64, 0x65, 0x6e, 0x73, 0x65, 0x5f, 0x32, 0x2f, 0x42,
  0x69, 0x61, 0x73, 0x41, 0x64, 0x64, 0x2f, 0x52, 0x65, 0x61, 0x64, 0x56,
  0x61, 0x72, 0x69, 0x61, 0x62, 0x6c, 0x65, 0x4f, 0x70, 0x00, 0x00, 0x00,
  0x01, 0x00, 0x00, 0x00, 0x01, 0x00, 0x00, 0x00, 0x2e, 0xfe, 0xff, 0xff,
  0x14, 0x00, 0x00, 0x00, 0x34, 0x00, 0x00, 0x00, 0x06, 0x00, 0x00, 0x00,
  0x00, 0x00, 0x00, 0x09, 0x48, 0x00, 0x00, 0x00, 0x9c, 0xfd, 0xff, 0xff,
  0x08, 0x00, 0x00, 0x00, 0x14, 0x00, 0x00, 0x00, 0x01, 0x00, 0x00, 0x00,
  0x00, 0x00, 0x00, 0x00, 0x00, 0x00, 0x00, 0x00, 0x00, 0x00, 0x00, 0x00,
  0x01, 0x00, 0x00, 0x00, 0xdf, 0x33, 0xc2, 0x3c, 0x19, 0x00, 0x00, 0x00,
  0x73, 0x65, 0x71, 0x75, 0x65, 0x6e, 0x74, 0x69, 0x61, 0x6c, 0x2f, 0x64,
  0x65, 0x6e, 0x73, 0x65, 0x5f, 0x32, 0x2f, 0x4d, 0x61, 0x74, 0x4d, 0x75,
  0x6c, 0x00, 0x00, 0x00, 0x02, 0x00, 0x00, 0x00, 0x01, 0x00, 0x00, 0x00,
  0x20, 0x00, 0x00, 0x00, 0x96, 0xfe, 0xff, 0xff, 0x14, 0x00, 0x00, 0x00,
  0x30, 0x00, 0x00, 0x00, 0x05, 0x00, 0x00, 0x00, 0x00, 0x00, 0x00, 0x02,
  0x54, 0x00, 0x00, 0x00, 0x04, 0xfe, 0xff, 0xff, 0x08, 0x00, 0x00, 0x00,
  0x10, 0x00, 0x00, 0x00, 0x01, 0x00, 0x00, 0x00, 0x00, 0x00, 0x00, 0x00,
  0x00, 0x00, 0x00, 0x00, 0x01, 0x00, 0x00, 0x00, 0x07, 0xd3, 0xd9, 0x3b,
  0x29, 0x00, 0x00, 0x00, 0x73, 0x65, 0x71, 0x75, 0x65, 0x6e, 0x74, 0x69,
  0x61, 0x6c, 0x2f, 0x64, 0x65, 0x6e, 0x73, 0x65, 0x5f, 0x31, 0x2f, 0x42,
  0x69, 0x61, 0x73, 0x41, 0x64, 0x64, 0x2f, 0x52, 0x65, 0x61, 0x64, 0x56,
  0x61, 0x72, 0x69, 0x61, 0x62, 0x6c, 0x65, 0x4f, 0x70, 0x00, 0x00, 0x00,
  0x01, 0x00, 0x00, 0x00, 0x20, 0x00, 0x00, 0x00, 0x06, 0xff, 0xff, 0xff,
  0x14, 0x00, 0x00, 0x00, 0x34, 0x00, 0x00, 0x00, 0x04, 0x00, 0x00, 0x00,
  0x00, 0x00, 0x00, 0x09, 0x48, 0x00, 0x00, 0x00, 0x74, 0xfe, 0xff, 0xff,
  0x08, 0x00, 0x00, 0x00, 0x14, 0x00, 0x00, 0x00, 0x01, 0x00, 0x00, 0x00,
  0x00, 0x00, 0x00, 0x00, 0x00, 0x00, 0x00, 0x00, 0x00, 0x00, 0x00, 0x00,
  0x01, 0x00, 0x00, 0x00, 0x28, 0xa5, 0x07, 0x3d, 0x19, 0x00, 0x00, 0x00,
  0x73, 0x65, 0x71, 0x75, 0x65, 0x6e, 0x74, 0x69, 0x61, 0x6c, 0x2f, 0x64,
  0x65, 0x6e, 0x73, 0x65, 0x5f, 0x31, 0x2f, 0x4d, 0x61, 0x74, 0x4d, 0x75,
  0x6c, 0x00, 0x00, 0x00, 0x02, 0x00, 0x00, 0x00, 0x20, 0x00, 0x00, 0x00,
  0x20, 0x00, 0x00, 0x00, 0x6e, 0xff, 0xff, 0xff, 0x14, 0x00, 0x00, 0x00,
  0x34, 0x00, 0x00, 0x00, 0x03, 0x00, 0x00, 0x00, 0x00, 0x00, 0x00, 0x02,
  0x74, 0x00, 0x00, 0x00, 0xdc, 0xfe, 0xff, 0xff, 0x08, 0x00, 0x00, 0x00,
  0x14, 0x00, 0x00, 0x00, 0x01, 0x00, 0x00, 0x00, 0x00, 0x00, 0x00, 0x00,
  0x00, 0x00, 0x00, 0x00, 0x00, 0x00, 0x00, 0x00, 0x01, 0x00, 0x00, 0x00,
  0xce, 0x13, 0xa0, 0x3b, 0x46, 0x00, 0x00, 0x00, 0x73, 0x65, 0x71, 0x75,
  0x65, 0x6e, 0x74, 0x69, 0x61, 0x6c, 0x2f, 0x64, 0x65, 0x6e, 0x73, 0x65,
  0x2f, 0x4d, 0x61, 0x74, 0x4d, 0x75, 0x6c, 0x3b, 0x73, 0x65, 0x71, 0x75,
  0x65, 0x6e, 0x74, 0x69, 0x61, 0x6c, 0x2f, 0x64, 0x65, 0x6e, 0x73, 0x65,
  0x2f, 0x52, 0x65, 0x6c, 0x75, 0x3b, 0x73, 0x65, 0x71, 0x75, 0x65, 0x6e,
  0x74, 0x69, 0x61, 0x6c, 0x2f, 0x64, 0x65, 0x6e, 0x73, 0x65, 0x2f, 0x42,
  0x69, 0x61, 0x73, 0x41, 0x64, 0x64, 0x00, 0x00, 0x01, 0x00, 0x00, 0x00,
  0x20, 0x00, 0x00, 0x00, 0x00, 0x00, 0x0e, 0x00, 0x18, 0x00, 0x14, 0x00,
  0x13, 0x00, 0x0c, 0x00, 0x08, 0x00, 0x04, 0x00, 0x0e, 0x00, 0x00, 0x00,
  0x14, 0x00, 0x00, 0x00, 0x30, 0x00, 0x00, 0x00, 0x02, 0x00, 0x00, 0x00,
  0x00, 0x00, 0x00, 0x09, 0x40, 0x00, 0x00, 0x00, 0x7c, 0xff, 0xff, 0xff,
  0x08, 0x00, 0x00, 0x00, 0x10, 0x00, 0x00, 0x00, 0x01, 0x00, 0x00, 0x00,
  0x00, 0x00, 0x00, 0x00, 0x00, 0x00, 0x00, 0x00, 0x01, 0x00, 0x00, 0x00,
  0xb9, 0xc6, 0x62, 0x3c, 0x17, 0x00, 0x00, 0x00, 0x73, 0x65, 0x71, 0x75,
  0x65, 0x6e, 0x74, 0x69, 0x61, 0x6c, 0x2f, 0x64, 0x65, 0x6e, 0x73, 0x65,
  0x2f, 0x4d, 0x61, 0x74, 0x4d, 0x75, 0x6c, 0x00, 0x02, 0x00, 0x00, 0x00,
  0x20, 0x00, 0x00, 0x00, 0x02, 0x00, 0x00, 0x00, 0x14, 0x00, 0x1c, 0x00,
  0x18, 0x00, 0x17, 0x00, 0x10, 0x00, 0x0c, 0x00, 0x08, 0x00, 0x00, 0x00,
  0x00, 0x00, 0x04, 0x00, 0x14, 0x00, 0x00, 0x00, 0x18, 0x00, 0x00, 0x00,
  0x2c, 0x00, 0x00, 0x00, 0x48, 0x00, 0x00, 0x00, 0x01, 0x00, 0x00, 0x00,
  0x00, 0x00, 0x00, 0x03, 0x68, 0x00, 0x00, 0x00, 0x02, 0x00, 0x00, 0x00,
  0xff, 0xff, 0xff, 0xff, 0x02, 0x00, 0x00, 0x00, 0x0c, 0x00, 0x0c, 0x00,
  0x00, 0x00, 0x00, 0x00, 0x08, 0x00, 0x04, 0x00, 0x0c, 0x00, 0x00, 0x00,
  0x08, 0x00, 0x00, 0x00, 0x10, 0x00, 0x00, 0x00, 0x01, 0x00, 0x00, 0x00,
  0x00, 0x00, 0x00, 0x00, 0x00, 0x00, 0x00, 0x00, 0x01, 0x00, 0x00, 0x00,
  0xb5, 0xb4, 0xb4, 0x3e, 0x25, 0x00, 0x00, 0x00, 0x73, 0x65, 0x72, 0x76,
  0x69, 0x6e, 0x67, 0x5f, 0x64, 0x65, 0x66, 0x61, 0x75, 0x6c, 0x74, 0x5f,
  0x6e, 0x6f, 0x72, 0x6d, 0x61, 0x6c, 0x69, 0x7a, 0x61, 0x74, 0x69, 0x6f,
  0x6e, 0x5f, 0x69, 0x6e, 0x70, 0x75, 0x74, 0x3a, 0x30, 0x00, 0x00, 0x00,
  0x02, 0x00, 0x00, 0x00, 0x01, 0x00, 0x00, 0x00, 0x02, 0x00, 0x00, 0x00,
  0x02, 0x00, 0x00, 0x00, 0x30, 0x00, 0x00, 0x00, 0x10, 0x00, 0x00, 0x00,
  0x0c, 0x00, 0x10, 0x00, 0x0f, 0x00, 0x00, 0x00, 0x08, 0x00, 0x04, 0x00,
  0x0c, 0x00, 0x00, 0x00, 0x09, 0x00, 0x00, 0x00, 0x04, 0x00, 0x00, 0x00,
  0x00, 0x00, 0x00, 0x09, 0x0c, 0x00, 0x0c, 0x00, 0x0b, 0x00, 0x00, 0x00,
  0x00, 0x00, 0x04, 0x00, 0x0c, 0x00, 0x00, 0x00, 0x72, 0x00, 0x00, 0x00,
  0x00, 0x00, 0x00, 0x72
};
const int g_model_len = 3976;
